TRT-101302-MinMaxCalibration
images: 3d98d71c
/model.0/conv/Conv_output_0: 4091fdfd
/model.0/act/Sigmoid_output_0: 3c010204
/model.0/act/Mul_output_0: 4091fdfd
/model.1/conv/Conv_output_0: 4168af43
/model.1/act/Sigmoid_output_0: 3c010204
/model.1/act/Mul_output_0: 41607b41
/model.2/cv1/conv/Conv_output_0: 4103ab1b
/model.2/cv1/act/Sigmoid_output_0: 3c010204
/model.2/cv1/act/Mul_output_0: 4061f0ce
/model.2/Split_output_0: 405ab5b5
/model.2/Split_output_1: 4061f0ce
/model.2/m.0/cv1/conv/Conv_output_0: 4098c44d
/model.2/m.0/cv1/act/Sigmoid_output_0: 3c010204
/model.2/m.0/cv1/act/Mul_output_0: 4054ee85
/model.2/m.0/cv2/conv/Conv_output_0: 4035d8b1
/model.2/m.0/cv2/act/Sigmoid_output_0: 3c010204
/model.2/m.0/cv2/act/Mul_output_0: 40270920
/model.2/m.0/Add_output_0: 408a8df6
/model.2/Concat_output_0: 408a8df6
/model.2/cv2/conv/Conv_output_0: 40181a9c
/model.2/cv2/act/Sigmoid_output_0: 3c010204
/model.2/cv2/act/Mul_output_0: 3f6ecd8c
/model.3/conv/Conv_output_0: 3f16dcb2
/model.3/act/Sigmoid_output_0: 3c010204
/model.3/act/Mul_output_0: 3e9fb8aa
/model.4/cv1/conv/Conv_output_0: 3e98397e
/model.4/cv1/act/Sigmoid_output_0: 3c010204
/model.4/cv1/act/Mul_output_0: 3e8162c3
/model.4/Split_output_0: 3e8162c3
/model.4/Split_output_1: 3df32cec
/model.4/m.0/cv1/conv/Conv_output_0: 3e105463
/model.4/m.0/cv1/act/Sigmoid_output_0: 3c01007e
/model.4/m.0/cv1/act/Mul_output_0: 3da11967
/model.4/m.0/cv2/conv/Conv_output_0: 3e39b746
/model.4/m.0/cv2/act/Sigmoid_output_0: 3c010038
/model.4/m.0/cv2/act/Mul_output_0: 3d9e3bd7
/model.4/m.0/Add_output_0: 3df21353
/model.4/m.1/cv1/conv/Conv_output_0: 3e0fda7f
/model.4/m.1/cv1/act/Sigmoid_output_0: 3c00a841
/model.4/m.1/cv1/act/Mul_output_0: 3d3def14
/model.4/m.1/cv2/conv/Conv_output_0: 3dc49e45
/model.4/m.1/cv2/act/Sigmoid_output_0: 3c00fe91
/model.4/m.1/cv2/act/Mul_output_0: 3d93dd3b
/model.4/m.1/Add_output_0: 3e189abb
/model.4/Concat_output_0: 3e8162c3
/model.4/cv2/conv/Conv_output_0: 3e7cdaf3
/model.4/cv2/act/Sigmoid_output_0: 3c010201
/model.4/cv2/act/Mul_output_0: 3df0232e
/model.5/conv/Conv_output_0: 3e1dda49
/model.5/act/Sigmoid_output_0: 3c010204
/model.5/act/Mul_output_0: 3e1c84bb
/model.6/cv1/conv/Conv_output_0: 3e93b43d
/model.6/cv1/act/Sigmoid_output_0: 3c010204
/model.6/cv1/act/Mul_output_0: 3e3e49be
/model.6/Split_output_0: 3e3e49be
/model.6/Split_output_1: 3de7885c
/model.6/m.0/cv1/conv/Conv_output_0: 3e3f0493
/model.6/m.0/cv1/act/Sigmoid_output_0: 3c010202
/model.6/m.0/cv1/act/Mul_output_0: 3df6c70e
/model.6/m.0/cv2/conv/Conv_output_0: 3e02d84b
/model.6/m.0/cv2/act/Sigmoid_output_0: 3c00fc76
/model.6/m.0/cv2/act/Mul_output_0: 3d8c0466
/model.6/m.0/Add_output_0: 3e0261e1
/model.6/m.1/cv1/conv/Conv_output_0: 3e17f073
/model.6/m.1/cv1/act/Sigmoid_output_0: 3c00ffea
/model.6/m.1/cv1/act/Mul_output_0: 3d9bb14f
/model.6/m.1/cv2/conv/Conv_output_0: 3e35af1c
/model.6/m.1/cv2/act/Sigmoid_output_0: 3c010201
/model.6/m.1/cv2/act/Mul_output_0: 3df13c14
/model.6/m.1/Add_output_0: 3e1563d2
/model.6/Concat_output_0: 3e3e49be
/model.6/cv2/conv/Conv_output_0: 3e2e1237
/model.6/cv2/act/Sigmoid_output_0: 3c0101c5
/model.6/cv2/act/Mul_output_0: 3dbe2981
/model.7/conv/Conv_output_0: 3e13a998
/model.7/act/Sigmoid_output_0: 3c010138
/model.7/act/Mul_output_0: 3dab637b
/model.8/cv1/conv/Conv_output_0: 3e390653
/model.8/cv1/act/Sigmoid_output_0: 3c0101f3
/model.8/cv1/act/Mul_output_0: 3dd3d225
/model.8/Split_output_0: 3dd3d225
/model.8/Split_output_1: 3d85d9d6
/model.8/m.0/cv1/conv/Conv_output_0: 3de3dcd8
/model.8/m.0/cv1/act/Sigmoid_output_0: 3c00c651
/model.8/m.0/cv1/act/Mul_output_0: 3d4b4525
/model.8/m.0/cv2/conv/Conv_output_0: 3df95259
/model.8/m.0/cv2/act/Sigmoid_output_0: 3c0101ba
/model.8/m.0/cv2/act/Mul_output_0: 3dbbc110
/model.8/m.0/Add_output_0: 3dbb8173
/model.8/Concat_output_0: 3dd3d225
/model.8/cv2/conv/Conv_output_0: 3dc13cef
/model.8/cv2/act/Sigmoid_output_0: 3c00f154
/model.8/cv2/act/Mul_output_0: 3d74ab96
/model.9/cv1/conv/Conv_output_0: 3d99fe14
/model.9/cv1/act/Sigmoid_output_0: 3c00ffab
/model.9/cv1/act/Mul_output_0: 3d99fb48
/model.9/m/MaxPool_output_0: 3d99fb48
/model.9/m_1/MaxPool_output_0: 3d99fb48
/model.9/m_2/MaxPool_output_0: 3d99fb48
/model.9/Concat_output_0: 3d99fb48
/model.9/cv2/conv/Conv_output_0: 3d702bea
/model.9/cv2/act/Sigmoid_output_0: 3bf642e3
/model.9/cv2/act/Mul_output_0: 3cbb4b5f
/model.10/Resize_output_0: 3cbb4b5f
/model.11/Concat_output_0: 3dbe2981
/model.12/cv1/conv/Conv_output_0: 3de54529
/model.12/cv1/act/Sigmoid_output_0: 3c00b47f
/model.12/cv1/act/Mul_output_0: 3d42bd36
/model.12/Split_output_0: 3d3240e8
/model.12/Split_output_1: 3d42bd36
/model.12/m.0/cv1/conv/Conv_output_0: 3d9f2085
/model.12/m.0/cv1/act/Sigmoid_output_0: 3c00a76f
/model.12/m.0/cv1/act/Mul_output_0: 3d3da307
/model.12/m.0/cv2/conv/Conv_output_0: 3d98cc27
/model.12/m.0/cv2/act/Sigmoid_output_0: 3c00e980
/model.12/m.0/cv2/act/Mul_output_0: 3d6832d9
/model.12/Concat_output_0: 3d6832d9
/model.12/cv2/conv/Conv_output_0: 3daa2298
/model.12/cv2/act/Sigmoid_output_0: 3c00c47d
/model.12/cv2/act/Mul_output_0: 3d4a490c
/model.13/Resize_output_0: 3d4a490c
/model.14/Concat_output_0: 3df0232e
/model.15/cv1/conv/Conv_output_0: 3e105a7f
/model.15/cv1/act/Sigmoid_output_0: 3c00f8bf
/model.15/cv1/act/Mul_output_0: 3d83e5b1
/model.15/Split_output_0: 3d83e5b1
/model.15/Split_output_1: 3d3f0e77
/model.15/m.0/cv1/conv/Conv_output_0: 3d80b895
/model.15/m.0/cv1/act/Sigmoid_output_0: 3bfd96da
/model.15/m.0/cv1/act/Mul_output_0: 3d005263
/model.15/m.0/cv2/conv/Conv_output_0: 3d79f038
/model.15/m.0/cv2/act/Sigmoid_output_0: 3c00805a
/model.15/m.0/cv2/act/Mul_output_0: 3d31da65
/model.15/Concat_output_0: 3d83e5b1
/model.15/cv2/conv/Conv_output_0: 3dba699d
/model.15/cv2/act/Sigmoid_output_0: 3c00f558
/model.15/cv2/act/Mul_output_0: 3d7d9287
/model.16/conv/Conv_output_0: 3e00f57f
/model.22/cv2.0/cv2.0.0/conv/Conv_output_0: 3e17f1e3
/model.22/cv3.0/cv3.0.0/conv/Conv_output_0: 3dda0b78
/model.16/act/Sigmoid_output_0: 3c010203
/model.22/cv2.0/cv2.0.0/act/Sigmoid_output_0: 3c00f663
/model.22/cv3.0/cv3.0.0/act/Sigmoid_output_0: 3c0101c7
/model.16/act/Mul_output_0: 3e00f57e
/model.22/cv2.0/cv2.0.0/act/Mul_output_0: 3d802c4e
/model.22/cv3.0/cv3.0.0/act/Mul_output_0: 3dbedd22
/model.17/Concat_output_0: 3e00f57e
/model.22/cv2.0/cv2.0.1/conv/Conv_output_0: 3e29bec7
/model.22/cv3.0/cv3.0.1/conv/Conv_output_0: 3dcc3d1a
/model.18/cv1/conv/Conv_output_0: 3dc8523b
/model.22/cv2.0/cv2.0.1/act/Sigmoid_output_0: 3c010204
/model.22/cv3.0/cv3.0.1/act/Sigmoid_output_0: 3c0101ea
/model.18/cv1/act/Sigmoid_output_0: 3c0101e2
/model.22/cv2.0/cv2.0.1/act/Mul_output_0: 3e29bec7
/model.22/cv3.0/cv3.0.1/act/Mul_output_0: 3dcc3cf1
/model.18/cv1/act/Mul_output_0: 3dc80ca4
/model.22/cv2.0/cv2.0.2/Conv_output_0: 3dcd4da9
/model.22/cv3.0/cv3.0.2/Conv_output_0: 3e654b7c
/model.18/Split_output_0: 3dc80ca4
/model.18/Split_output_1: 3dbd2093
/model.22/Concat_output_0: 3e654b7c
/model.18/m.0/cv1/conv/Conv_output_0: 3dc70b9f
/model.22/Reshape_output_0: 3e654b7c
/model.18/m.0/cv1/act/Sigmoid_output_0: 3bff312c
/model.18/m.0/cv1/act/Mul_output_0: 3d0fabc7
/model.18/m.0/cv2/conv/Conv_output_0: 3d8bcb9d
/model.18/m.0/cv2/act/Sigmoid_output_0: 3c006b0f
/model.18/m.0/cv2/act/Mul_output_0: 3d2cd567
/model.18/Concat_output_0: 3dc80ca4
/model.18/cv2/conv/Conv_output_0: 3dcd0e91
/model.18/cv2/act/Sigmoid_output_0: 3c00ffe2
/model.18/cv2/act/Mul_output_0: 3d9b7963
/model.19/conv/Conv_output_0: 3d70491f
/model.22/cv2.1/cv2.1.0/conv/Conv_output_0: 3dd85eeb
/model.22/cv3.1/cv3.1.0/conv/Conv_output_0: 3d7f4109
/model.19/act/Sigmoid_output_0: 3c00eed5
/model.22/cv2.1/cv2.1.0/act/Sigmoid_output_0: 3c0101eb
/model.22/cv3.1/cv3.1.0/act/Sigmoid_output_0: 3c00ed2a
/model.19/act/Mul_output_0: 3d702564
/model.22/cv2.1/cv2.1.0/act/Mul_output_0: 3dcd0967
/model.22/cv3.1/cv3.1.0/act/Mul_output_0: 3d6d742c
/model.20/Concat_output_0: 3d702564
/model.22/cv2.1/cv2.1.1/conv/Conv_output_0: 3e06f5d1
/model.22/cv3.1/cv3.1.1/conv/Conv_output_0: 3d53aa18
/model.21/cv1/conv/Conv_output_0: 3db9dc07
/model.22/cv2.1/cv2.1.1/act/Sigmoid_output_0: 3c0101f4
/model.22/cv3.1/cv3.1.1/act/Sigmoid_output_0: 3c00c89c
/model.21/cv1/act/Sigmoid_output_0: 3c00ffb0
/model.22/cv2.1/cv2.1.1/act/Mul_output_0: 3dd4c4b3
/model.22/cv3.1/cv3.1.1/act/Mul_output_0: 3d4c8c05
/model.21/cv1/act/Mul_output_0: 3d9a1c08
/model.22/cv2.1/cv2.1.2/Conv_output_0: 3d92f199
/model.22/cv3.1/cv3.1.2/Conv_output_0: 3e22f25f
/model.21/Split_output_0: 3d9a1c08
/model.21/Split_output_1: 3d20a1b3
/model.22/Concat_1_output_0: 3e22f25f
/model.21/m.0/cv1/conv/Conv_output_0: 3d10a4a3
/model.22/Reshape_1_output_0: 3e22f25f
/model.21/m.0/cv1/act/Sigmoid_output_0: 3beefe26
/model.21/m.0/cv1/act/Mul_output_0: 3c97361b
/model.21/m.0/cv2/conv/Conv_output_0: 3d0e25e7
/model.21/m.0/cv2/act/Sigmoid_output_0: 3bfdb38d
/model.21/m.0/cv2/act/Mul_output_0: 3d0134c4
/model.21/Concat_output_0: 3d9a1c08
/model.21/cv2/conv/Conv_output_0: 3daab315
/model.21/cv2/act/Sigmoid_output_0: 3c010013
/model.21/cv2/act/Mul_output_0: 3d9cf646
/model.22/cv2.2/cv2.2.0/conv/Conv_output_0: 3db8e2c2
/model.22/cv3.2/cv3.2.0/conv/Conv_output_0: 3d09e33e
/model.22/cv2.2/cv2.2.0/act/Sigmoid_output_0: 3c00ace0
/model.22/cv3.2/cv3.2.0/act/Sigmoid_output_0: 3bfe79fc
/model.22/cv2.2/cv2.2.0/act/Mul_output_0: 3d3fa9fa
/model.22/cv3.2/cv3.2.0/act/Mul_output_0: 3d07ff0a
/model.22/cv2.2/cv2.2.1/conv/Conv_output_0: 3e06713a
/model.22/cv3.2/cv3.2.1/conv/Conv_output_0: 3c97c890
/model.22/cv2.2/cv2.2.1/act/Sigmoid_output_0: 3c010204
/model.22/cv3.2/cv3.2.1/act/Sigmoid_output_0: 3beb9d41
/model.22/cv2.2/cv2.2.1/act/Mul_output_0: 3e06713a
/model.22/cv3.2/cv3.2.1/act/Mul_output_0: 3c8a9af4
/model.22/cv2.2/cv2.2.2/Conv_output_0: 3da85928
/model.22/cv3.2/cv3.2.2/Conv_output_0: 3db688da
/model.22/Concat_2_output_0: 3db688da
/model.22/Reshape_2_output_0: 3db688da
/model.22/Concat_3_output_0: 3e654b7c
/model.22/Split_output_0: 3dcd4da9
/model.22/Split_output_1: 3e654b7c
/model.22/dfl/Reshape_output_0: 3dcd4da9
/model.22/Sigmoid_output_0: 3be9371b
/model.22/dfl/Transpose_output_0: 3dcd4da9
/model.22/dfl/Softmax_output: 3bff6d7a
/model.22/dfl/Softmax_output_0: 3bff6d7a
/model.22/dfl/conv/Conv_output_0: 3d68f0b1
/model.22/dfl/Reshape_1_output_0: 3d68f0b1
/model.22/Concat_4_output_0: 3f20a21f
/model.22/Div_1_output_0: 3f20a21f
/model.22/Slice_output_0: 3d485021
/model.22/Slice_1_output_0: 3d68f0b1
/model.22/Constant_11_output_0_output: 3c810204
/model.22/Sub_1_output_0: 3dd03f2c
ONNXTRT_Broadcast_output: 3c810204
/model.22/Add_2_output_0: 3fa0a21f
ONNXTRT_Broadcast_95_output: 3e810204
/model.22/Add_1_output_0: 3f21975e
/model.22/Constant_10_output_0_output: 3f204081
/model.22/Constant_12_output_0_output: 3e810204
/model.22/Sub_output_0: 3f1ff187
/model.22/Constant_9_output_0_output: 3f204081
/model.22/Mul_2_output_0: 40a58cf7
output0: 40a58cf7
